TRT-8402-MinMaxCalibration
input: 3caa46e8
Conv_0__output: 3e741989
InstanceNormalization_1__output: 3e067f4f
Conv_3__output: 3f93fc2d
InstanceNormalization_4__output: 3e0924bb
Conv_6__output: 3ee2f4a7
InstanceNormalization_7__output: 3e043c9f
Conv_9__output: 3f07f9a2
InstanceNormalization_10__output: 3e0ca6b0
Conv_12__output: 3ee4c28f
InstanceNormalization_13__output: 3dfa1797
Conv_15__output: 3eff4f66
InstanceNormalization_16__output: 3dfe105c
Conv_18__output: 3e652e23
InstanceNormalization_19__output: 3db4699b
Conv_21__output: 3e9a3aad
InstanceNormalization_22__output: 3d86c5ca
Conv_24__output: 3e3179b3
InstanceNormalization_25__output: 3d79f249
Conv_27__output: 3e10e6ea
InstanceNormalization_28__output: 3d33a930
Conv_30__output: 3d54658c
InstanceNormalization_31__output: 3d100157
Conv_33__output: 3d284557
InstanceNormalization_34__output: 3d1cd646
ConvTranspose_36__output: 3c882cc1
ConvTranspose_36_pixelshuffle_plugin__output: 3d33a930
Conv_38__output: 3e43d033
InstanceNormalization_39__output: 3d52324c
Conv_41__output: 3e358e8e
InstanceNormalization_42__output: 3d66f0da
ConvTranspose_44__output: 3d2a920c
ConvTranspose_44_pixelshuffle_plugin__output: 3d86c5ca
Conv_46__output: 3ea6dc76
InstanceNormalization_47__output: 3d7e5a8b
Conv_49__output: 3ed971f2
InstanceNormalization_50__output: 3da2ad2e
ConvTranspose_52__output: 3d826424
ConvTranspose_52_pixelshuffle_plugin__output: 3dfe105c
Conv_54__output: 3f2dc552
InstanceNormalization_55__output: 3db50030
Conv_57__output: 3efeaabe
InstanceNormalization_58__output: 3deb3544
ConvTranspose_60__output: 3d9c7a77
ConvTranspose_60_pixelshuffle_plugin__output: 3e0ca6b0
Conv_62__output: 3f1d6616
InstanceNormalization_63__output: 3e019af6
Conv_65__output: 3f965b2d
InstanceNormalization_66__output: 3e34b5fe
ConvTranspose_68__output: 3e359176
ConvTranspose_68_pixelshuffle_plugin__output: 3e359176
Conv_70__output: 3fba8256
InstanceNormalization_71__output: 3e016c03
Conv_73__output: 3f81aeb3
InstanceNormalization_74__output: 3e310e53
conv3d1x1x1k4_out: 3f32c4a5
output: 3f32c4a5
