TRT-8600-EntropyCalibration2
images: 3caa54fc
res1_conv_out_0: 3da0928d
(Unnamed Layer* 1) [Constant]_output: 3b6e563c
res1_scale_out_0: 3c7e25a0
(Unnamed Layer* 3) [Constant]_output: 3bf9b795
res1_bias_out_0: 3c8c9049
res1_relu_out_0: 3c8cd14c
res1_maxpool_out_0: 3c8cd14c
res2a_branch2a_conv_out_0: 3ced14ce
res2a_branch1_conv_out_0: 3ca08753
(Unnamed Layer* 9) [Constant]_output: 3cc1f3fe
res2a_branch2a_scale_out_0: 3cb5009c
(Unnamed Layer* 11) [Constant]_output: 3ce1aa4d
res2a_branch1_scale_out_0: 3cd985fc
(Unnamed Layer* 13) [Constant]_output: 3bea1bb6
res2a_branch2a_bias_out_0: 3c77d89a
(Unnamed Layer* 15) [Constant]_output: 3c88aa25
res2a_branch1_bias_out_0: 3c633488
res2a_branch2a_relu_out_0: 3c2ff178
res2a_branch2b_conv_out_0: 3be446fd
(Unnamed Layer* 19) [Constant]_output: 3dd817fc
res2a_branch2b_scale_out_0: 3c8c164e
(Unnamed Layer* 21) [Constant]_output: 3b80787d
res2a_branch2b_bias_out_0: 3c80d497
res2a_branch2b_relu_out_0: 3c61b33c
res2a_branch2c_conv_out_0: 3c091c73
(Unnamed Layer* 25) [Constant]_output: 3cfeb45c
res2a_branch2c_scale_out_0: 3c70d91f
(Unnamed Layer* 27) [Constant]_output: 3baaa93a
res2a_branch2c_bias_out_0: 3c5a7c47
res2a_residual_add_out_0: 3c914223
res2a_relu_out_0: 3c75c19e
res2b_branch2a_conv_out_0: 3c1ca80b
(Unnamed Layer* 32) [Constant]_output: 3c8a2420
res2b_branch2a_scale_out_0: 3c3a3a91
(Unnamed Layer* 34) [Constant]_output: 3b8f26b7
res2b_branch2a_bias_out_0: 3bfaff35
res2b_branch2a_relu_out_0: 3c1889b6
res2b_branch2b_conv_out_0: 3b7c2951
(Unnamed Layer* 38) [Constant]_output: 3d95db90
res2b_branch2b_scale_out_0: 3c46dbed
(Unnamed Layer* 40) [Constant]_output: 3bb75d8e
res2b_branch2b_bias_out_0: 3c45fd09
res2b_branch2b_relu_out_0: 3c3989a7
res2b_branch2c_conv_out_0: 3b8fffed
(Unnamed Layer* 44) [Constant]_output: 3d05f419
res2b_branch2c_scale_out_0: 3c1d3f25
(Unnamed Layer* 46) [Constant]_output: 3bca30ac
res2b_branch2c_bias_out_0: 3c212c26
res2b_residual_add_out_0: 3c63852a
res2b_relu_out_0: 3c63852a
res2c_branch2a_conv_out_0: 3bf6b8c5
(Unnamed Layer* 51) [Constant]_output: 3c5c6837
res2c_branch2a_scale_out_0: 3bfdacc8
(Unnamed Layer* 53) [Constant]_output: 3b4dc209
res2c_branch2a_bias_out_0: 3bfc426b
res2c_branch2a_relu_out_0: 3bf11c1f
res2c_branch2b_conv_out_0: 3b21dc52
(Unnamed Layer* 57) [Constant]_output: 3d87a3bc
res2c_branch2b_scale_out_0: 3c230497
(Unnamed Layer* 59) [Constant]_output: 3b7212a4
res2c_branch2b_bias_out_0: 3c1a5654
res2c_branch2b_relu_out_0: 3c179c83
res2c_branch2c_conv_out_0: 3b4a8527
(Unnamed Layer* 63) [Constant]_output: 3d365d3c
res2c_branch2c_scale_out_0: 3c181c67
(Unnamed Layer* 65) [Constant]_output: 3bd908a1
res2c_branch2c_bias_out_0: 3c0088f6
res2c_residual_add_out_0: 3c6ce58d
res2c_relu_out_0: 3c82973d
res3a_branch2a_conv_out_0: 3c4e4a84
res3a_branch1_conv_out_0: 3c32546c
(Unnamed Layer* 71) [Constant]_output: 3c7d60bf
res3a_branch2a_scale_out_0: 3c6be0bc
(Unnamed Layer* 73) [Constant]_output: 3c8e8e28
res3a_branch1_scale_out_0: 3c3c35a2
(Unnamed Layer* 75) [Constant]_output: 3b9b0d24
res3a_branch2a_bias_out_0: 3c4077c2
(Unnamed Layer* 77) [Constant]_output: 3b968a3b
res3a_branch1_bias_out_0: 3c2f9910
res3a_branch2a_relu_out_0: 3c2c2e1b
res3a_branch2b_conv_out_0: 3bace598
(Unnamed Layer* 81) [Constant]_output: 3d71945e
res3a_branch2b_scale_out_0: 3c86d092
(Unnamed Layer* 83) [Constant]_output: 3b79b63b
res3a_branch2b_bias_out_0: 3c787181
res3a_branch2b_relu_out_0: 3c7db4c2
res3a_branch2c_conv_out_0: 3be44a31
(Unnamed Layer* 87) [Constant]_output: 3d0fa0bd
res3a_branch2c_scale_out_0: 3c88b694
(Unnamed Layer* 89) [Constant]_output: 3b92e6fc
res3a_branch2c_bias_out_0: 3c6e6d1c
res3a_residual_add_out_0: 3c9183eb
res3a_relu_out_0: 3c9183eb
res3b_branch2a_conv_out_0: 3c41e1e5
(Unnamed Layer* 94) [Constant]_output: 3c83984e
res3b_branch2a_scale_out_0: 3c2b51d3
(Unnamed Layer* 96) [Constant]_output: 3b3c69e2
res3b_branch2a_bias_out_0: 3c228eb7
res3b_branch2a_relu_out_0: 3c228eb7
res3b_branch2b_conv_out_0: 3b9a736c
(Unnamed Layer* 100) [Constant]_output: 3d806aae
res3b_branch2b_scale_out_0: 3c92c417
(Unnamed Layer* 102) [Constant]_output: 3b3781d4
res3b_branch2b_bias_out_0: 3c7c4d73
res3b_branch2b_relu_out_0: 3c28378f
res3b_branch2c_conv_out_0: 3b8be2e9
(Unnamed Layer* 106) [Constant]_output: 3d2e619a
res3b_branch2c_scale_out_0: 3c7b3a54
(Unnamed Layer* 108) [Constant]_output: 3b9f7cb9
res3b_branch2c_bias_out_0: 3c52065f
res3b_residual_add_out_0: 3c8986b7
res3b_relu_out_0: 3c8807bc
res3c_branch2a_conv_out_0: 3c372cbd
(Unnamed Layer* 113) [Constant]_output: 3c6eac87
res3c_branch2a_scale_out_0: 3c31fddd
(Unnamed Layer* 115) [Constant]_output: 3b1c40e5
res3c_branch2a_bias_out_0: 3c2d34e4
res3c_branch2a_relu_out_0: 3c2c63c5
res3c_branch2b_conv_out_0: 3b975fea
(Unnamed Layer* 119) [Constant]_output: 3d8dbe9c
res3c_branch2b_scale_out_0: 3c8ac362
(Unnamed Layer* 121) [Constant]_output: 3b487a17
res3c_branch2b_bias_out_0: 3c8b30d3
res3c_branch2b_relu_out_0: 3c5cbfa0
res3c_branch2c_conv_out_0: 3b725208
(Unnamed Layer* 125) [Constant]_output: 3d25aa1a
res3c_branch2c_scale_out_0: 3c47a0d0
(Unnamed Layer* 127) [Constant]_output: 3b3a71e6
res3c_branch2c_bias_out_0: 3c3541c8
res3c_residual_add_out_0: 3c7249c2
res3c_relu_out_0: 3c7249c2
res3d_branch2a_conv_out_0: 3c29a5cb
(Unnamed Layer* 132) [Constant]_output: 3c66e0da
res3d_branch2a_scale_out_0: 3c36357b
(Unnamed Layer* 134) [Constant]_output: 3b0eda94
res3d_branch2a_bias_out_0: 3c2e9d1d
res3d_branch2a_relu_out_0: 3c2e6680
res3d_branch2b_conv_out_0: 3bbae176
(Unnamed Layer* 138) [Constant]_output: 3da0d09a
res3d_branch2b_scale_out_0: 3c7136d6
(Unnamed Layer* 140) [Constant]_output: 3b81f690
res3d_branch2b_bias_out_0: 3c6ddd8c
res3d_branch2b_relu_out_0: 3c3e3648
res3d_branch2c_conv_out_0: 3bc15c7f
(Unnamed Layer* 144) [Constant]_output: 3d3553b4
res3d_branch2c_scale_out_0: 3c4ea1aa
(Unnamed Layer* 146) [Constant]_output: 3b467a02
res3d_branch2c_bias_out_0: 3c471da0
res3d_residual_add_out_0: 3c82a1ea
res3d_relu_out_0: 3c82a1ea
res4a_branch2a_conv_out_0: 3c38b67b
res4a_branch1_conv_out_0: 3be8bade
1399: 3c5892c9
(Unnamed Layer* 153) [Constant]_output: 3c81d0f9
res4a_branch2a_scale_out_0: 3c7d80b4
(Unnamed Layer* 155) [Constant]_output: 3c81fa9f
res4a_branch1_scale_out_0: 3c10d2ee
(Unnamed Layer* 159) [Constant]_output: 3af3144e
res4a_branch2a_bias_out_0: 3c6e5561
(Unnamed Layer* 161) [Constant]_output: 3b026496
res4a_branch1_bias_out_0: 3c010c96
res4a_branch2a_relu_out_0: 3c546fbd
res4a_branch2b_conv_out_0: 3bcd17d1
(Unnamed Layer* 172) [Constant]_output: 3d7bf667
res4a_branch2b_scale_out_0: 3c790025
(Unnamed Layer* 175) [Constant]_output: 3b48381b
res4a_branch2b_bias_out_0: 3c6d762a
res4a_branch2b_relu_out_0: 3c688b74
res4a_branch2c_conv_out_0: 3bd24948
(Unnamed Layer* 179) [Constant]_output: 3cf158b1
res4a_branch2c_scale_out_0: 3c8cc811
(Unnamed Layer* 181) [Constant]_output: 3b8aef02
res4a_branch2c_bias_out_0: 3c567ec5
res4a_residual_add_out_0: 3c91698d
res4a_relu_out_0: 3c9d688e
res4b_branch2a_conv_out_0: 3c572022
(Unnamed Layer* 186) [Constant]_output: 3c6a062e
res4b_branch2a_scale_out_0: 3c76d158
(Unnamed Layer* 188) [Constant]_output: 3b368992
res4b_branch2a_bias_out_0: 3c74f7ff
res4b_branch2a_relu_out_0: 3c338bfd
res4b_branch2b_conv_out_0: 3bd32d4d
(Unnamed Layer* 192) [Constant]_output: 3d8f719b
res4b_branch2b_scale_out_0: 3caea9ea
(Unnamed Layer* 194) [Constant]_output: 3b748a59
res4b_branch2b_bias_out_0: 3cae2a75
res4b_branch2b_relu_out_0: 3c338311
res4b_branch2c_conv_out_0: 3ba1645f
(Unnamed Layer* 198) [Constant]_output: 3d21bbc5
res4b_branch2c_scale_out_0: 3c844811
(Unnamed Layer* 200) [Constant]_output: 3b8e86e8
res4b_branch2c_bias_out_0: 3c68bf51
res4b_residual_add_out_0: 3c796e27
res4b_relu_out_0: 3c860c75
res4c_branch2a_conv_out_0: 3c62f841
(Unnamed Layer* 205) [Constant]_output: 3c6025b8
res4c_branch2a_scale_out_0: 3c4d45bb
(Unnamed Layer* 207) [Constant]_output: 3b042aa9
res4c_branch2a_bias_out_0: 3c442ed5
res4c_branch2a_relu_out_0: 3c345019
res4c_branch2b_conv_out_0: 3b9c41e0
(Unnamed Layer* 211) [Constant]_output: 3d9222d9
res4c_branch2b_scale_out_0: 3c8f6601
(Unnamed Layer* 213) [Constant]_output: 3b401ad5
res4c_branch2b_bias_out_0: 3c7ec915
res4c_branch2b_relu_out_0: 3c4ac28b
res4c_branch2c_conv_out_0: 3b5daed8
(Unnamed Layer* 217) [Constant]_output: 3d328912
res4c_branch2c_scale_out_0: 3c4112a1
(Unnamed Layer* 219) [Constant]_output: 3b21ede4
res4c_branch2c_bias_out_0: 3c4f7857
res4c_residual_add_out_0: 3c806568
res4c_relu_out_0: 3c94d037
res4d_branch2a_conv_out_0: 3c1ad591
(Unnamed Layer* 224) [Constant]_output: 3c6c9001
res4d_branch2a_scale_out_0: 3c43652f
(Unnamed Layer* 226) [Constant]_output: 3ae57041
res4d_branch2a_bias_out_0: 3c440de5
res4d_branch2a_relu_out_0: 3c3509a9
res4d_branch2b_conv_out_0: 3ba126a1
(Unnamed Layer* 230) [Constant]_output: 3ddd5cf7
res4d_branch2b_scale_out_0: 3c8a1f4c
(Unnamed Layer* 232) [Constant]_output: 3b427694
res4d_branch2b_bias_out_0: 3c88124e
res4d_branch2b_relu_out_0: 3c324bff
res4d_branch2c_conv_out_0: 3b542f82
(Unnamed Layer* 236) [Constant]_output: 3d3906c5
res4d_branch2c_scale_out_0: 3c4ff076
(Unnamed Layer* 238) [Constant]_output: 3b60942d
res4d_branch2c_bias_out_0: 3c5714b5
res4d_residual_add_out_0: 3c8376be
res4d_relu_out_0: 3c84c286
res4e_branch2a_conv_out_0: 3c16faea
(Unnamed Layer* 243) [Constant]_output: 3c75973f
res4e_branch2a_scale_out_0: 3c422d6d
(Unnamed Layer* 245) [Constant]_output: 3af43e3e
res4e_branch2a_bias_out_0: 3c4254a5
res4e_branch2a_relu_out_0: 3c23a73a
res4e_branch2b_conv_out_0: 3b7fc54e
(Unnamed Layer* 249) [Constant]_output: 3dd1599b
res4e_branch2b_scale_out_0: 3c86efaf
(Unnamed Layer* 251) [Constant]_output: 3b4c136f
res4e_branch2b_bias_out_0: 3c8962e8
res4e_branch2b_relu_out_0: 3c3af98c
res4e_branch2c_conv_out_0: 3b40cae3
(Unnamed Layer* 255) [Constant]_output: 3d43620e
res4e_branch2c_scale_out_0: 3c31e296
(Unnamed Layer* 257) [Constant]_output: 3b4a1893
res4e_branch2c_bias_out_0: 3c6806a0
res4e_residual_add_out_0: 3c7f3e3d
res4e_relu_out_0: 3c7f3e3d
res4f_branch2a_conv_out_0: 3c183e15
(Unnamed Layer* 262) [Constant]_output: 3c939e38
res4f_branch2a_scale_out_0: 3c4a2b48
(Unnamed Layer* 264) [Constant]_output: 3ad7e7ae
res4f_branch2a_bias_out_0: 3c544c5b
res4f_branch2a_relu_out_0: 3c221c9a
res4f_branch2b_conv_out_0: 3b86616e
(Unnamed Layer* 268) [Constant]_output: 3dbf39f8
res4f_branch2b_scale_out_0: 3c808168
(Unnamed Layer* 270) [Constant]_output: 3b2d53f2
res4f_branch2b_bias_out_0: 3c84ca8e
res4f_branch2b_relu_out_0: 3c4ec280
res4f_branch2c_conv_out_0: 3ba80ba8
(Unnamed Layer* 274) [Constant]_output: 3d3a60dd
res4f_branch2c_scale_out_0: 3c85985e
(Unnamed Layer* 276) [Constant]_output: 3b27a15d
res4f_branch2c_bias_out_0: 3c89326b
res4f_residual_add_out_0: 3c913372
res4f_relu_out_0: 3c80d941
res5a_branch2a_conv_out_0: 3c100f8b
res5a_branch1_conv_out_0: 3bbde37c
1377: 3c3904e4
(Unnamed Layer* 283) [Constant]_output: 3c761930
res5a_branch2a_scale_out_0: 3c2858bd
(Unnamed Layer* 285) [Constant]_output: 3ccec19c
res5a_branch1_scale_out_0: 3c6a1bb9
(Unnamed Layer* 289) [Constant]_output: 3ad701be
res5a_branch2a_bias_out_0: 3c2a5070
(Unnamed Layer* 291) [Constant]_output: 3ae33db4
res5a_branch1_bias_out_0: 3c6d5685
res5a_branch2a_relu_out_0: 3be16b35
res5a_branch2b_conv_out_0: 3b04aa0b
(Unnamed Layer* 302) [Constant]_output: 3dd266f2
res5a_branch2b_scale_out_0: 3c58d836
(Unnamed Layer* 305) [Constant]_output: 3b01b754
res5a_branch2b_bias_out_0: 3c5808d5
res5a_branch2b_relu_out_0: 3c54b2b3
res5a_branch2c_conv_out_0: 3be4e9ec
(Unnamed Layer* 309) [Constant]_output: 3d0d262c
res5a_branch2c_scale_out_0: 3cbf8874
(Unnamed Layer* 311) [Constant]_output: 3b071ae1
res5a_branch2c_bias_out_0: 3cc63e5c
res5a_residual_add_out_0: 3cf9dbb3
res5a_relu_out_0: 3c9b796c
res5b_branch2a_conv_out_0: 3c234adb
(Unnamed Layer* 316) [Constant]_output: 3c836465
res5b_branch2a_scale_out_0: 3c796edd
(Unnamed Layer* 318) [Constant]_output: 3addfa22
res5b_branch2a_bias_out_0: 3c6bd455
res5b_branch2a_relu_out_0: 3c31ac60
res5b_branch2b_conv_out_0: 3b91f49e
(Unnamed Layer* 322) [Constant]_output: 3d5c9e06
res5b_branch2b_scale_out_0: 3c82e320
(Unnamed Layer* 324) [Constant]_output: 3b6dafd1
res5b_branch2b_bias_out_0: 3c77ab47
res5b_branch2b_relu_out_0: 3c1d27b6
res5b_branch2c_conv_out_0: 3bc671b1
(Unnamed Layer* 328) [Constant]_output: 3d5d3d48
res5b_branch2c_scale_out_0: 3ce4295d
(Unnamed Layer* 330) [Constant]_output: 3c4ab74e
res5b_branch2c_bias_out_0: 3ce7a923
res5b_residual_add_out_0: 3ce7a923
res5b_relu_out_0: 3ca37776
res5c_branch2a_conv_out_0: 3c179ddd
(Unnamed Layer* 335) [Constant]_output: 3c1249d7
res5c_branch2a_scale_out_0: 3bd9438c
(Unnamed Layer* 337) [Constant]_output: 3a4e32a0
res5c_branch2a_bias_out_0: 3bceebad
res5c_branch2a_relu_out_0: 3b8e6e3f
res5c_branch2b_conv_out_0: 3afec0de
(Unnamed Layer* 341) [Constant]_output: 3e2f19be
res5c_branch2b_scale_out_0: 3ca609ad
(Unnamed Layer* 343) [Constant]_output: 3ae1975e
res5c_branch2b_bias_out_0: 3c9596c7
res5c_branch2b_relu_out_0: 3c09a23d
res5c_branch2c_conv_out_0: 3b559b3a
(Unnamed Layer* 347) [Constant]_output: 3e4b6073
res5c_branch2c_scale_out_0: 3d947c28
(Unnamed Layer* 349) [Constant]_output: 3c1a73f6
res5c_branch2c_bias_out_0: 3d8d50bb
res5c_residual_add_out_0: 3d90baa4
res5c_relu_out_0: 3d2d6626
1375: 3c7bcbdd
1376: 3d021cfd
1421: 3d714457
1442: 3d5890a5
1487: 3d3e46ce
1422: 3d78def3
1443: 3d45f5e4
1451: 3dc512fc
1488: 3d1ebf7b
1496: 3dd24df9
1396: 3c7bcbdd
1423: 3d94e36b
1444: 3d59c731
1452: 3da9a59b
1489: 3d510a53
1497: 3d9359ca
1397: 3c8e8762
1445: 3d1bfff6
1453: 3daa9ad8
1460: 3e0317c4
1490: 3cb059c6
1498: 3d8cdd0e
1505: 3df804e1
1398: 3d013b4e
1446: 3d229cf6
1454: 3d52ce50
1461: 3ddc1cd7
1491: 3c949ef7
1499: 3ceba884
1506: 3db5c8a8
1433: 3d7b03bf
1447: 3cba0c0e
1455: 3d45b4c2
1462: 3dc841a5
1478: 3d67e3a7
1492: 3bfb61da
1500: 3cbc494a
1507: 3dbc0236
1434: 3d5b1bd1
1448: 3ce14405
1456: 3cf3727c
1463: 3d6aa87d
1479: 3d3f0991
1493: 3c2ad0b0
1501: 3c205e1d
1508: 3cf02bff
1418: 3c8e8762
1435: 3d6304e3
1449: 3cae01e1
1457: 3d2b49cb
1464: 3d414e74
1480: 3d60eaa7
1494: 3bb24c4e
1502: 3c3980b2
1509: 3ca42f3f
1419: 3cade3ce
1436: 3d04bd3d
classification_head_25x25: 3e2e93e4
1458: 3cceace2
1465: 3cf96e4a
1481: 3cb77016
regression_head_25x25: 3c1a8ae9
1503: 3ba92192
1510: 3c19374c
1420: 3d37015a
1437: 3cee533b
classification_head_13x13: 3e4e0a47
1466: 3d433ed8
1482: 3c967a99
regression_head_13x13: 3bf88929
1511: 3c42e335
1424: 3d98ea95
1438: 3c955611
1467: 3ce34d1e
1469: 3d8fa546
1483: 3c16ddff
1512: 3b9e9677
1425: 3d8592fe
1439: 3cb24468
classification_head_7x7: 3e44ed1e
1470: 3d583dc1
1484: 3c2f18dd
regression_head_7x7: 3bcd5da8
1426: 3d76416d
1440: 3c8c5b26
1471: 3d62a8bc
1485: 3bcbae5a
1427: 3d0069fb
classification_head_50x50: 3e1d1d1f
1472: 3cb7efb2
regression_head_50x50: 3c5c1780
1428: 3cefcb0b
1473: 3c97210d
1429: 3c812045
1474: 3c14bd83
1430: 3c8a485b
1475: 3c23c5c9
1431: 3c7580e0
1476: 3bfc3104
classification_head_100x100: 3e20d14a
regression_head_100x100: 3c875b20
(Unnamed Layer* 460) [Constant]_output: 3c4aea16
nmsopt_output: 3f95c449
